08 e5 d1 19 fa f0 d6 13 04 e8 cc f9 d2 dc f8 03
f2 ea d2 30 e8 23 e0 11 05 fc fc de cc 23 11 d5
ec 2d 28 e5 1e 01 14 fe ca e6 01 ea 0a d6 36 11
ed 26 04 fc fb c3 3c 1f 11 06 e5 f0 ee ed 13 fb
03 e8 1b 2d c2 f0 39 fb 1b 05 0d 1f 35 12 1d 0a
18 1d 24 e3 f3 1a f7 f9 fa de 29 c9 d7 e5 ea f7
ee cb 0d 18 cf e2 20 cf 32 0b 10 2c 1b 00 15 02
e5 e0 ff 1f 0b 27 23 1c c9 c2 df cc e1 13 34 18
ba 22 d6 1b d5 23 08 dc eb 3e e0 ff f8 cc ff de
cd 00 ef 26 1b d5 c8 fe e6 83 14 dc 0a fd a3 0b
56 42 c7 7d 01 ce ff 03 d1 5f 03 d8 12 27 d5 ea
81 0f f2 fa db fd f5 0d 0f b2 c9 ce e6 08 c8 1b
12 e0 f3 1f b0 f2 ed 07 4f 06 cf e1 f5 4a fa ef
01 19 d9 3a 24 fb 39 d3 21 f0 cd da 49 09 f1 e8
da e2 db 05 39 e3 35 e2 c0 3e e0 11 ff fb 1c 13
e2 3f e8 ed c2 fb 0b b8 dd 4b 09 01 d1 ff fe 00
0f 31 12 2e fa ce fc 47 1b f7 da c8 ae 05 00 ea
f2 2b 1a 18 8f c8 d9 79 21 e6 c2 e7 df 2a df e0
e3 e6 09 35 06 22 1f be ad 10 20 06 13 cf 4f 0a
d1 f2 d7 99 0e e3 ed 2c d3 57 11 eb 64 ef 4a 01
