6a 00 9b 9d 7c 27 00 92
31 fc 2a f9 00 06 11 29
07 c9 12 f8 2e 2b e6 3e
16 d5 da 3c c2 c7 ff 29
29 d3 f6 42 9e 1d fa 5a
f5 25 25 0f e5 24 e9 2d
e0 fc 22 c3 d2 d7 dd 3e
0b cf 0d 31 2f d6 00 c8
af d5 da 53 02 1d 00 48
00 26 ce 17 92 0f 1d 35
1a fe d5 09 ef e6 fe 16
e2 eb 2e 3c 37 24 00 f8
f9 dd 2e a5 f6 11 22 23
0f c6 30 44 2c cc db e3
04 f5 cd 33 30 37 e5 02
e1 00 13 00 00 f1 00 05
